{
  "0": "\u0000",
  "1": "\u0001",
  "2": "\u0002",
  "3": "\u0003",
  "4": "\u0004",
  "5": "\u0005",
  "6": "\u0006",
  "7": "\u0007",
  "8": "\b",
  "9": "\t",
  "10": "\n",
  "11": "\u000b",
  "12": "\f",
  "13": "\r",
  "14": "\u000e",
  "15": "\u000f",
  "16": "\u0010",
  "17": "\u0011",
  "18": "\u0012",
  "19": "\u0013",
  "20": "\u0014",
  "21": "\u0015",
  "22": "\u0016",
  "23": "\u0017",
  "24": "\u0018",
  "25": "\u0019",
  "26": "\u001a",
  "27": "\u001b",
  "28": "\u001c",
  "29": "\u001d",
  "30": "\u001e",
  "31": "\u001f",
  "32": " ",
  "33": "!",
  "34": "\"",
  "35": "#",
  "36": "$",
  "37": "%",
  "38": "&",
  "39": "'",
  "40": "(",
  "41": ")",
  "42": "*",
  "43": "+",
  "44": ",",
  "45": "-",
  "46": ".",
  "47": "/",
  "48": "0",
  "49": "1",
  "50": "2",
  "51": "3",
  "52": "4",
  "53": "5",
  "54": "6",
  "55": "7",
  "56": "8",
  "57": "9",
  "58": ":",
  "59": ";",
  "60": "<",
  "61": "=",
  "62": ">",
  "63": "?",
  "64": "@",
  "65": "A",
  "66": "B",
  "67": "C",
  "68": "D",
  "69": "E",
  "70": "F",
  "71": "G",
  "72": "H",
  "73": "I",
  "74": "J",
  "75": "K",
  "76": "L",
  "77": "M",
  "78": "N",
  "79": "O",
  "80": "P",
  "81": "Q",
  "82": "R",
  "83": "S",
  "84": "T",
  "85": "U",
  "86": "V",
  "87": "W",
  "88": "X",
  "89": "Y",
  "90": "Z",
  "91": "[",
  "92": "\\",
  "93": "]",
  "94": "^",
  "95": "_",
  "96": "`",
  "97": "a",
  "98": "b",
  "99": "c",
  "100": "d",
  "101": "e",
  "102": "f",
  "103": "g",
  "104": "h",
  "105": "i",
  "106": "j",
  "107": "k",
  "108": "l",
  "109": "m",
  "110": "n",
  "111": "o",
  "112": "p",
  "113": "q",
  "114": "r",
  "115": "s",
  "116": "t",
  "117": "u",
  "118": "v",
  "119": "w",
  "120": "x",
  "121": "y",
  "122": "z",
  "123": "{",
  "124": "|",
  "125": "}",
  "126": "~",
  "127": "",
  "128": "�",
  "129": "�",
  "130": "�",
  "131": "�",
  "132": "�",
  "133": "�",
  "134": "�",
  "135": "�",
  "136": "�",
  "137": "�",
  "138": "�",
  "139": "�",
  "140": "�",
  "141": "�",
  "142": "�",
  "143": "�",
  "144": "�",
  "145": "�",
  "146": "�",
  "147": "�",
  "148": "�",
  "149": "�",
  "150": "�",
  "151": "�",
  "152": "�",
  "153": "�",
  "154": "�",
  "155": "�",
  "156": "�",
  "157": "�",
  "158": "�",
  "159": "�",
  "160": "�",
  "161": "�",
  "162": "�",
  "163": "�",
  "164": "�",
  "165": "�",
  "166": "�",
  "167": "�",
  "168": "�",
  "169": "�",
  "170": "�",
  "171": "�",
  "172": "�",
  "173": "�",
  "174": "�",
  "175": "�",
  "176": "�",
  "177": "�",
  "178": "�",
  "179": "�",
  "180": "�",
  "181": "�",
  "182": "�",
  "183": "�",
  "184": "�",
  "185": "�",
  "186": "�",
  "187": "�",
  "188": "�",
  "189": "�",
  "190": "�",
  "191": "�",
  "192": "�",
  "193": "�",
  "194": "�",
  "195": "�",
  "196": "�",
  "197": "�",
  "198": "�",
  "199": "�",
  "200": "�",
  "201": "�",
  "202": "�",
  "203": "�",
  "204": "�",
  "205": "�",
  "206": "�",
  "207": "�",
  "208": "�",
  "209": "�",
  "210": "�",
  "211": "�",
  "212": "�",
  "213": "�",
  "214": "�",
  "215": "�",
  "216": "�",
  "217": "�",
  "218": "�",
  "219": "�",
  "220": "�",
  "221": "�",
  "222": "�",
  "223": "�",
  "224": "�",
  "225": "�",
  "226": "�",
  "227": "�",
  "228": "�",
  "229": "�",
  "230": "�",
  "231": "�",
  "232": "�",
  "233": "�",
  "234": "�",
  "235": "�",
  "236": "�",
  "237": "�",
  "238": "�",
  "239": "�",
  "240": "�",
  "241": "�",
  "242": "�",
  "243": "�",
  "244": "�",
  "245": "�",
  "246": "�",
  "247": "�",
  "248": "�",
  "249": "�",
  "250": "�",
  "251": "�",
  "252": "�",
  "253": "�",
  "254": "�",
  "255": "�",
  "256": "<|endoftext|>",
  "257": "e ",
  "258": "d ",
  "259": "th",
  "260": " a",
  "261": ". ",
  "262": "t ",
  "263": "y ",
  "264": "s ",
  "265": "nd ",
  "266": "to",
  "267": "er",
  "268": "ed ",
  "269": "the ",
  "270": ", ",
  "271": "wa",
  "272": "in",
  "273": "he ",
  "274": "to ",
  "275": "ou",
  "276": " and ",
  "277": "en",
  "278": "ha",
  "279": ". T",
  "280": " a ",
  "281": "om",
  "282": "sa",
  "283": "ar",
  "284": " the ",
  "285": "on",
  "286": "he",
  "287": ".\n",
  "288": "im",
  "289": "ll",
  "290": "g ",
  "291": "was ",
  "292": "an",
  "293": "or",
  "294": "er ",
  "295": "it",
  "296": "ay",
  "297": "id",
  "298": "ir",
  "299": "is ",
  "300": "re",
  "301": "pl",
  "302": "il",
  "303": "ed to ",
  "304": "wi",
  "305": "am",
  "306": "the",
  "307": "lo",
  "308": "st",
  "309": "ri",
  "310": "a ",
  "311": "and ",
  "312": ". H",
  "313": ". S",
  "314": "o ",
  "315": "hey ",
  "316": ". He ",
  "317": " h",
  "318": "no",
  "319": "at ",
  "320": "ere ",
  "321": "On",
  "322": "with",
  "323": "un",
  "324": ". They ",
  "325": "ing ",
  "326": "pp",
  "327": "ver",
  "328": ". The ",
  "329": "ck",
  "330": "li",
  "331": "\" ",
  "332": "bi",
  "333": "ll ",
  "334": "le",
  "335": ". She ",
  "336": ", \"",
  "337": "day",
  "338": "ut ",
  "339": "om ",
  "340": "be",
  "341": "it ",
  "342": "w ",
  "343": "ok",
  "344": "said",
  "345": "you",
  "346": "ing",
  "347": "le ",
  "348": "bo",
  "349": "ma",
  "350": "happ",
  "351": "ed",
  "352": "do",
  "353": "ld ",
  "354": "ba",
  "355": "up",
  "356": "end",
  "357": "im ",
  "358": "of",
  "359": "gh",
  "360": "fri",
  "361": "ne",
  "362": "ay ",
  "363": "sh",
  "364": "very ",
  "365": "an ",
  "366": "ch",
  "367": "se",
  "368": "for",
  "369": "l ",
  "370": "wan",
  "371": "en ",
  "372": "ce ",
  "373": "was",
  "374": "had ",
  "375": "itt",
  "376": "big ",
  "377": "said, \"",
  "378": "friend",
  "379": "Lil",
  "380": "e, ",
  "381": "ve ",
  "382": "ro",
  "383": "they ",
  "384": "ted to ",
  "385": "not ",
  "386": "play",
  "387": "One ",
  "388": ". I",
  "389": "ge",
  "390": "ittle ",
  "391": "little ",
  "392": "tim",
  "393": "his ",
  "394": "was a ",
  "395": "ke ",
  "396": "'s ",
  "397": "that ",
  "398": "es",
  "399": "at",
  "400": "nam",
  "401": "One day",
  "402": "she ",
  "403": "ould ",
  "404": "in the ",
  "405": "id ",
  "406": "car",
  "407": "named ",
  "408": "her ",
  "409": "bir",
  "410": "y and ",
  "411": "The ",
  "412": "there ",
  "413": "ther",
  "414": "to the ",
  "415": "ra",
  "416": "ed and ",
  "417": "were ",
  "418": "fe",
  "419": "on a ",
  "420": "ent ",
  "421": "so ",
  "422": "wh",
  "423": "saw",
  "424": "\"\n",
  "425": "play ",
  "426": "go",
  "427": ", and ",
  "428": "hel",
  "429": "wanted to ",
  "430": "you ",
  "431": "\nOn",
  "432": "re ",
  "433": "but ",
  "434": "\nOnce ",
  "435": "help",
  "436": "look",
  "437": "went ",
  "438": "se ",
  "439": "I ",
  "440": "upon a ",
  "441": "upon a tim",
  "442": "\nOnce upon a tim",
  "443": "ed the ",
  "444": " his ",
  "445": "y a",
  "446": "ound ",
  "447": "with ",
  "448": "! ",
  "449": "there was a ",
  "450": "fi",
  "451": "ta",
  "452": "sk",
  "453": "po",
  "454": "fun",
  "455": "la",
  "456": "ca",
  "457": "Tim ",
  "458": ". It ",
  "459": "ea",
  "460": "\nOnce upon a time, ",
  "461": "One day, ",
  "462": "ur",
  "463": "toge",
  "464": "s and ",
  "465": ", but ",
  "466": "bird ",
  "467": "Lily ",
  "468": "som",
  "469": "be ",
  "470": " her ",
  "471": "of ",
  "472": "Tim",
  "473": "!\" ",
  "474": "tre",
  "475": "my ",
  "476": "k ",
  "477": "st ",
  "478": "m ",
  "479": "ck ",
  "480": "par",
  "481": "was very ",
  "482": "gir",
  "483": "ame ",
  "484": "ir ",
  "485": ", a ",
  "486": "et",
  "487": "sm",
  "488": "wn",
  "489": "mom ",
  "490": "ec",
  "491": "came ",
  "492": "mom",
  "493": "co",
  "494": "saw a ",
  "495": "new ",
  "496": "ga",
  "497": "fu",
  "498": ". B",
  "499": "t the ",
  "500": "tt",
  "501": "their ",
  "502": "lov",
  "503": "e and ",
  "504": "on the ",
  "505": "ic",
  "506": "\nOnce upon a time, there was a ",
  "507": "y, ",
  "508": "Ma",
  "509": "ch ",
  "510": "friends",
  "511": "for ",
  "512": "together",
  "513": "Max",
  "514": "did ",
  "515": ".\" ",
  "516": "'t ",
  "517": "girl ",
  "518": "is",
  "519": "played ",
  "520": "ough",
  "521": "have ",
  "522": "um",
  "523": "had a ",
  "524": "smil",
  "525": ". A",
  "526": "t to ",
  "527": "could ",
  "528": "fa",
  "529": ".\"\n",
  "530": ".\n\"",
  "531": "happy",
  "532": "can ",
  "533": ". Tim ",
  "534": "es ",
  "535": "sid",
  "536": "ue ",
  "537": "ex",
  "538": "bu",
  "539": "found ",
  "540": "mor",
  "541": "looked ",
  "542": "lik",
  "543": "way",
  "544": "star",
  "545": "ow",
  "546": "sto",
  "547": "Tom",
  "548": "happy ",
  "549": "did not ",
  "550": "boy ",
  "551": "in ",
  "552": "nd",
  "553": "fr",
  "554": "Tom ",
  "555": "fel",
  "556": "said ",
  "557": "al",
  "558": "toy",
  "559": "dog ",
  "560": "on ",
  "561": "would ",
  "562": "hat ",
  "563": "some",
  "564": "out",
  "565": "day ",
  "566": "You",
  "567": "sp",
  "568": "ball",
  "569": "ther ",
  "570": "rea",
  "571": "od ",
  "572": "el",
  "573": "wor",
  "574": " an",
  "575": "ke",
  "576": "ho",
  "577": "like ",
  "578": ". \"",
  "579": "ter",
  "580": "lk",
  "581": "cat ",
  "582": "one ",
  "583": "with the ",
  "584": "thing ",
  "585": "p ",
  "586": "?\" ",
  "587": "o, ",
  "588": "felt ",
  "589": "r ",
  "590": "ved ",
  "591": "pi",
  "592": "ent",
  "593": "Sam",
  "594": "gr",
  "595": ".\nThe ",
  "596": "big",
  "597": "make ",
  "598": "scar",
  "599": "sma",
  "600": "mu",
  "601": "me",
  "602": "was so ",
  "603": "dd",
  "604": "de ",
  "605": "thing",
  "606": "loved to ",
  "607": "sha",
  "608": "though",
  "609": "Wh",
  "610": "little girl ",
  "611": "One day, a ",
  "612": "in a ",
  "613": ". One day, ",
  "614": "of the ",
  "615": "go ",
  "616": "igh",
  "617": "park",
  "618": ". But ",
  "619": "started to ",
  "620": "ug",
  "621": "liked to ",
  "622": "out ",
  "623": "see ",
  "624": "man",
  "625": ", the ",
  "626": "made ",
  "627": "ugh",
  "628": "box",
  "629": "Max ",
  "630": "fo",
  "631": "find ",
  "632": "tri",
  "633": "\n\n",
  "634": "e.\n",
  "635": "arn",
  "636": "ell",
  "637": "pa",
  "638": "com",
  "639": "Mi",
  "640": "with his ",
  "641": "down",
  "642": "it was ",
  "643": "too",
  "644": "friends ",
  "645": "want to ",
  "646": "kno",
  "647": "took",
  "648": "fun ",
  "649": "They ",
  "650": "tr",
  "651": " are ",
  "652": "them",
  "653": "something ",
  "654": "cat",
  "655": "gain",
  "656": "say",
  "657": "ob",
  "658": "help ",
  "659": "put ",
  "660": "op",
  "661": "sun",
  "662": "uc",
  "663": "learn",
  "664": "pu",
  "665": "ly ",
  "666": "f ",
  "667": "lived ",
  "668": "lon",
  "669": "sad",
  "670": "walk",
  "671": "gre",
  "672": "pre",
  "673": "found a ",
  "674": "all",
  "675": "use ",
  "676": ".\nOne day, ",
  "677": "toy ",
  "678": "saw ",
  "679": "will ",
  "680": "qu",
  "681": "di",
  "682": "boy named ",
  "683": "ever",
  "684": " and the ",
  "685": "Lily",
  "686": "hey a",
  "687": "ted ",
  "688": "back ",
  "689": ". \n",
  "690": "bird",
  "691": "od",
  "692": "red ",
  "693": "pr",
  "694": "good ",
  "695": "n't ",
  "696": "ful ",
  "697": "ver ",
  "698": ".\nA",
  "699": "\nOne day, a ",
  "700": "gi",
  "701": "br",
  "702": "th ",
  "703": "sw",
  "704": "happy and ",
  "705": "ld",
  "706": "Luc",
  "707": "her",
  "708": "your ",
  "709": "some ",
  "710": "other",
  "711": "him",
  "712": "Spo",
  "713": "Mom",
  "714": "na",
  "715": "low",
  "716": "laugh",
  "717": "hom",
  "718": ",\" ",
  "719": ". They a",
  "720": "smiled and ",
  "721": "ow ",
  "722": "al ",
  "723": "ts ",
  "724": "d and ",
  "725": "pe",
  "726": "ss",
  "727": "der",
  "728": "en, ",
  "729": "when ",
  "730": "what ",
  "731": "them ",
  "732": "han",
  "733": "ed her ",
  "734": "ice ",
  "735": "ound",
  "736": "we ",
  "737": "playing ",
  "738": "dog",
  "739": "Ben ",
  "740": "!\"\n",
  "741": "sti",
  "742": "ask",
  "743": "You ",
  "744": "da",
  "745": "ar ",
  "746": "back",
  "747": ". I ",
  "748": "tree",
  "749": "small ",
  "750": "dec",
  "751": "who ",
  "752": "ce",
  "753": "Su",
  "754": " all ",
  "755": "too ",
  "756": "es, ",
  "757": "ball ",
  "758": "cit",
  "759": "little girl named ",
  "760": "saw a big ",
  "761": "ut",
  "762": "knew ",
  "763": "wat",
  "764": "mo",
  "765": "Sue ",
  "766": "ny ",
  "767": "�",
  "768": "t's ",
  "769": "excit",
  "770": "thought ",
  "771": "play with ",
  "772": "ways ",
  "773": "many ",
  "774": "clo",
  "775": "decid",
  "776": "with her ",
  "777": " a big ",
  "778": " ar",
  "779": "went to the ",
  "780": "cou",
  "781": "became ",
  "782": "cause ",
  "783": "outsid",
  "784": "big, ",
  "785": "We ",
  "786": "ump",
  "787": "sor",
  "788": "sh ",
  "789": "ry ",
  "790": "ff",
  "791": ". They were ",
  "792": "ed his ",
  "793": "cl",
  "794": "hou",
  "795": "because ",
  "796": "room",
  "797": " and said, \"",
  "798": "ju",
  "799": "both ",
  "800": "ble",
  "801": "says",
  "802": "e the ",
  "803": "ran",
  "804": "ran ",
  "805": "ry",
  "806": ". Tom ",
  "807": "from",
  "808": "best ",
  "809": "hear",
  "810": "got ",
  "811": "on, ",
  "812": "lea",
  "813": "end ",
  "814": "tried to ",
  "815": "ill",
  "816": "on't ",
  "817": "ard",
  "818": "do ",
  "819": "run",
  "820": "sur",
  "821": "pri",
  "822": "day, ",
  "823": "ed that ",
  "824": "But ",
  "825": "Lily and ",
  "826": "told ",
  "827": "each ",
  "828": "Mia ",
  "829": "prett",
  "830": "care",
  "831": "Ben",
  "832": "e to ",
  "833": "decided to ",
  "834": " ab",
  "835": "saw the ",
  "836": "insid",
  "837": "so",
  "838": ". F",
  "839": "gave ",
  "840": "ind ",
  "841": "for a ",
  "842": "Let",
  "843": "pla",
  "844": ". The bird ",
  "845": " ask",
  "846": "oud ",
  "847": "Sam ",
  "848": "man ",
  "849": ". Lily ",
  "850": "surpri",
  "851": "up ",
  "852": "lu",
  "853": "open",
  "854": "t and ",
  "855": ". And ",
  "856": "by ",
  "857": "more ",
  "858": "har",
  "859": "rab",
  "860": "su",
  "861": "An",
  "862": "can",
  "863": "Let's ",
  "864": "one",
  "865": "flow",
  "866": "ful",
  "867": "hug",
  "868": "cle",
  "869": "than",
  "870": "did",
  "871": "Yes, ",
  "872": "happy to ",
  "873": "jump",
  "874": "was not ",
  "875": "ep",
  "876": " away",
  "877": "cre",
  "878": "ly",
  "879": "tur",
  "880": "show",
  "881": "When ",
  "882": "take ",
  "883": "looked at ",
  "884": "every ",
  "885": "shin",
  "886": "om that ",
  "887": "s, ",
  "888": "not",
  "889": "n ",
  "890": ". E",
  "891": "happen",
  "892": "tter",
  "893": " al",
  "894": " again",
  "895": "str",
  "896": "Bob",
  "897": "little boy named ",
  "898": "Can ",
  "899": "know ",
  "900": "hank ",
  "901": "Lucy ",
  "902": "si",
  "903": "Sar",
  "904": " all",
  "905": "this ",
  "906": "jo",
  "907": "che",
  "908": "its ",
  "909": "ite ",
  "910": "fle",
  "911": "ve",
  "912": "other ",
  "913": "om that day ",
  "914": "way ",
  "915": "spec",
  "916": "every",
  "917": "ev",
  "918": "together ",
  "919": "they a",
  "920": "?\"\n",
  "921": "my",
  "922": "list",
  "923": "get ",
  "924": "fast",
  "925": "bea",
  "926": "they were ",
  "927": "him ",
  "928": ". It was ",
  "929": "ing and ",
  "930": "for the ",
  "931": "war",
  "932": "dy ",
  "933": "ong",
  "934": "scared",
  "935": "ily ",
  "936": "pped ",
  "937": "water",
  "938": "with a ",
  "939": "went to ",
  "940": "under",
  "941": "imal",
  "942": ", but he ",
  "943": "we",
  "944": "said, \"I ",
  "945": "dan",
  "946": "s. They ",
  "947": "old ",
  "948": "could not ",
  "949": "work",
  "950": "you, ",
  "951": "tu",
  "952": "didn't ",
  "953": "speci",
  "954": "Thank ",
  "955": "ing the ",
  "956": "de",
  "957": "per",
  "958": ". Th",
  "959": "tree ",
  "960": "opl",
  "961": "cked ",
  "962": "fter",
  "963": "things ",
  "964": "me ",
  "965": "ght",
  "966": "He ",
  "967": "idea",
  "968": "each other",
  "969": ". You ",
  "970": "s.\n",
  "971": "heard ",
  "972": ". He wanted to ",
  "973": "ge ",
  "974": " him",
  "975": "ts of ",
  "976": "every day",
  "977": "'s mom ",
  "978": "happened",
  "979": "es and ",
  "980": " at the ",
  "981": ", he ",
  "982": "rock",
  "983": "near",
  "984": "long",
  "985": "thank",
  "986": ". We ",
  "987": "or ",
  "988": "if ",
  "989": "dre",
  "990": "lots of ",
  "991": "flower",
  "992": "dden",
  "993": "friend ",
  "994": " around ",
  "995": "nice ",
  "996": "Tim and ",
  "997": "house",
  "998": "park ",
  "999": "lled "
}